{"0": "\u0000", "1": "\u0001", "2": "\u0002", "3": "\u0003", "4": "\u0004", "5": "\u0005", "6": "\u0006", "7": "\u0007", "8": "\b", "9": "\t", "10": "\n", "11": "\u000b", "12": "\f", "13": "\r", "14": "\u000e", "15": "\u000f", "16": "\u0010", "17": "\u0011", "18": "\u0012", "19": "\u0013", "20": "\u0014", "21": "\u0015", "22": "\u0016", "23": "\u0017", "24": "\u0018", "25": "\u0019", "26": "\u001a", "27": "\u001b", "28": "\u001c", "29": "\u001d", "30": "\u001e", "31": "\u001f", "32": " ", "33": "!", "34": "\"", "35": "#", "36": "$", "37": "%", "38": "&", "39": "'", "40": "(", "41": ")", "42": "*", "43": "+", "44": ",", "45": "-", "46": ".", "47": "/", "48": "0", "49": "1", "50": "2", "51": "3", "52": "4", "53": "5", "54": "6", "55": "7", "56": "8", "57": "9", "58": ":", "59": ";", "60": "<", "61": "=", "62": ">", "63": "?", "64": "@", "65": "A", "66": "B", "67": "C", "68": "D", "69": "E", "70": "F", "71": "G", "72": "H", "73": "I", "74": "J", "75": "K", "76": "L", "77": "M", "78": "N", "79": "O", "80": "P", "81": "Q", "82": "R", "83": "S", "84": "T", "85": "U", "86": "V", "87": "W", "88": "X", "89": "Y", "90": "Z", "91": "[", "92": "\\", "93": "]", "94": "^", "95": "_", "96": "`", "97": "a", "98": "b", "99": "c", "100": "d", "101": "e", "102": "f", "103": "g", "104": "h", "105": "i", "106": "j", "107": "k", "108": "l", "109": "m", "110": "n", "111": "o", "112": "p", "113": "q", "114": "r", "115": "s", "116": "t", "117": "u", "118": "v", "119": "w", "120": "x", "121": "y", "122": "z", "123": "{", "124": "|", "125": "}", "126": "~", "127": "", "128": "�", "129": "�", "130": "�", "131": "�", "132": "�", "133": "�", "134": "�", "135": "�", "136": "�", "137": "�", "138": "�", "139": "�", "140": "�", "141": "�", "142": "�", "143": "�", "144": "�", "145": "�", "146": "�", "147": "�", "148": "�", "149": "�", "150": "�", "151": "�", "152": "�", "153": "�", "154": "�", "155": "�", "156": "�", "157": "�", "158": "�", "159": "�", "160": "�", "161": "�", "162": "�", "163": "�", "164": "�", "165": "�", "166": "�", "167": "�", "168": "�", "169": "�", "170": "�", "171": "�", "172": "�", "173": "�", "174": "�", "175": "�", "176": "�", "177": "�", "178": "�", "179": "�", "180": "�", "181": "�", "182": "�", "183": "�", "184": "�", "185": "�", "186": "�", "187": "�", "188": "�", "189": "�", "190": "�", "191": "�", "192": "�", "193": "�", "194": "�", "195": "�", "196": "�", "197": "�", "198": "�", "199": "�", "200": "�", "201": "�", "202": "�", "203": "�", "204": "�", "205": "�", "206": "�", "207": "�", "208": "�", "209": "�", "210": "�", "211": "�", "212": "�", "213": "�", "214": "�", "215": "�", "216": "�", "217": "�", "218": "�", "219": "�", "220": "�", "221": "�", "222": "�", "223": "�", "224": "�", "225": "�", "226": "�", "227": "�", "228": "�", "229": "�", "230": "�", "231": "�", "232": "�", "233": "�", "234": "�", "235": "�", "236": "�", "237": "�", "238": "�", "239": "�", "240": "�", "241": "�", "242": "�", "243": "�", "244": "�", "245": "�", "246": "�", "247": "�", "248": "�", "249": "�", "250": "�", "251": "�", "252": "�", "253": "�", "254": "�", "255": "�", "256": "<|endoftext|>", "257": "he", "258": " t", "259": " a", "260": " s", "261": " w", "262": "nd", "263": " the", "264": "ed", "265": " and", "266": " to", "267": " b", "268": "in", "269": " h", "270": " wa", "271": "re", "272": " f", "273": "it", "274": "ou", "275": " c", "276": " l", "277": " he", "278": " d", "279": "er", "280": " was", "281": " m", "282": " p", "283": "om", "284": " T", "285": " o", "286": "ay", "287": "ar", "288": "ing", "289": "is", "290": " g", "291": "il", "292": "id", "293": "at", "294": "en", "295": " n", "296": " sa", "297": " ha", "298": " S", "299": "im", "300": "an", "301": " The", "302": "or", "303": "on", "304": " it", "305": " th", "306": "ll", "307": "le", "308": " H", "309": " her", "310": "et", "311": "ot", "312": "ir", "313": " She", "314": " He", "315": "ver", "316": "es", "317": " in", "318": "ut", "319": "ow", "320": "ck", "321": " e", "322": " u", "323": "ld", "324": " They", "325": "oo", "326": "ig", "327": " said", "328": "am", "329": "ily", "330": " be", "331": " y", "332": " r", "333": " st", "334": "ce", "335": " she", "336": " \"", "337": "pp", "338": "ke", "339": "ith", "340": "On", "341": " I", "342": " with", "343": "ve", "344": "Lily", "345": " on", "346": " of", "347": " so", "348": " his", "349": "ked", "350": "ri", "351": "nt", "352": "very", "353": " pl", "354": " day", "355": "ad", "356": " you", "357": " that", "358": " up", "359": " had", "360": "st", "361": " play", "362": " they", "363": " Lily", "364": " we", "365": " mom", "366": "my", "367": " for", "368": "el", "369": "ould", "370": "un", "371": " B", "372": "'s", "373": "itt", "374": "ent", "375": " happ", "376": "The", "377": "ch", "378": " li", "379": "out", "380": " want", "381": " sh", "382": "her", "383": "ly", "384": "ime", "385": "ittle", "386": "ound", "387": " very", "388": " time", "389": "ome", "390": " little", "391": " there", "392": "se", "393": " do", "394": " wh", "395": "all", "396": " k", "397": "end", "398": "al", "399": "ht", "400": " ne", "401": " re", "402": " not", "403": " happy", "404": " big", "405": " M", "406": " but", "407": " sm", "408": "ack", "409": " saw", "410": " It", "411": " as", "412": " an", "413": "ra", "414": "riend", "415": " friend", "416": "ide", "417": "One", "418": "ry", "419": "'t", "420": "ved", "421": " is", "422": "Once", "423": "ake", "424": ".\"", "425": " were", "426": "ter", "427": "ug", "428": " loo", "429": " lo", "430": "ore", "431": "ec", "432": " Tim", "433": " him", "434": " bo", "435": "!\"", "436": " too", "437": " upon", "438": " go", "439": "irl", "440": " j", "441": " wanted", "442": " girl", "443": " se", "444": " out", "445": "ard", "446": "way", "447": " sp", "448": "ill", "449": "ind", "450": " them", "451": " could", "452": "fu", "453": "hen", "454": " at", "455": "ur", "456": " did", "457": " smil", "458": " their", "459": " are", "460": " ex", "461": " A", "462": "ain", "463": " went", "464": "art", "465": "hed", "466": "rom", "467": "ic", "468": "round", "469": " have", "470": " nam", "471": "lp", "472": " all", "473": " J", "474": "ful", "475": " kn", "476": "hing", "477": "ood", "478": " help", "479": "ight", "480": " friends", "481": "one", "482": "ark", "483": " back", "484": "um", "485": " can", "486": " named", "487": " cl", "488": "?\"", "489": " fun", "490": "are", "491": " Ben", "492": " loved", "493": "elt", "494": " al", "495": " Timmy", "496": " One", "497": "op", "498": "side", "499": " le", "500": " no", "501": " sc", "502": " Tom", "503": " felt", "504": "oug", "505": " smiled", "506": "ick", "507": " asked", "508": "You", "509": " toy", "510": " man", "511": " around", "512": "ame", "513": " fe", "514": " say", "515": " boy", "516": " some", "517": " looked", "518": "ure", "519": "omet", "520": " br", "521": " would", "522": " me", "523": " bir", "524": " like", "525": "get", "526": " start", "527": " ro", "528": "as", "529": " see", "530": " W", "531": "ice", "532": "ong", "533": " bird", "534": " somet", "535": "dd", "536": " wor", "537": "ade", "538": "ie", "539": "king", "540": " ag", "541": "own", "542": " tre", "543": " fa", "544": " away", "545": " what", "546": "ings", "547": " started", "548": "gether", "549": " ran", "550": "�", "551": "ared", "552": " make", "553": " But", "554": "ited", "555": "if", "556": "oud", "557": " made", "558": " together", "559": " something", "560": " exc", "561": "ag", "562": " co", "563": " park", "564": " new", "565": " sad", "566": " put", "567": ",\"", "568": " from", "569": "ble", "570": "ther", "571": " pr", "572": " mu", "573": " car", "574": " home", "575": " You", "576": " then", "577": " when", "578": " found", "579": "ell", "580": " other", "581": " again", "582": " ch", "583": " dec", "584": " who", "585": " la", "586": "ried", "587": "ss", "588": " good", "589": " hug", "590": " L", "591": "pped", "592": " wal", "593": "ep", "594": "ally", "595": " says", "596": " fl", "597": "est", "598": "ach", "599": " E", "600": " excited", "601": "pl", "602": "qu", "603": "ook", "604": " get", "605": "ought", "606": " playing", "607": " got", "608": " sw", "609": "ous", "610": "hat", "611": "ny", "612": "ided", "613": "uck", "614": " things", "615": " every", "616": " decided", "617": " came", "618": " bec", "619": "ave", "620": "ro", "621": "ax", "622": " liked", "623": " down", "624": " dog", "625": " scared", "626": " v", "627": "udd", "628": "ust", "629": " one", "630": " find", "631": " bl", "632": " than", "633": " D", "634": "ouse", "635": "ways", "636": " kne", "637": " didn", "638": "ap", "639": " mommy", "640": " care", "641": " always", "642": " ab", "643": "ist", "644": " dad", "645": " feel", "646": "ara", "647": "bb", "648": "arn", "649": "fe", "650": " your", "651": " outside", "652": "ue", "653": " gra", "654": "ant", "655": " ke", "656": " Mom", "657": " took", "658": " lot", "659": "nn", "660": " bu", "661": " about", "662": "ess", "663": " F", "664": "nder", "665": " tree", "666": "eci", "667": " look", "668": " po", "669": " my", "670": "our", "671": " toys", "672": "ite", "673": "ched", "674": " knew", "675": " thought", "676": "ened", "677": " learn", "678": " int", "679": " old", "680": " more", "681": "nna", "682": "ise", "683": "ged", "684": " ta", "685": "udden", "686": "ecial", "687": " special", "688": " Max", "689": "au", "690": " will", "691": "ers", "692": "They", "693": "ret", "694": " pe", "695": " ho", "696": " Sam", "697": " take", "698": " ball", "699": " know", "700": " laug", "701": "fter", "702": "uddenly", "703": " cat", "704": " how", "705": "ive", "706": " tr", "707": " much", "708": " any", "709": " pu", "710": "ma", "711": " sl", "712": " sor", "713": " mo", "714": "ven", "715": "ish", "716": " show", "717": " couldn", "718": "ause", "719": "ink", "720": "But", "721": " house", "722": " into", "723": "ump", "724": " over", "725": " tried", "726": "and", "727": " eat", "728": " sk", "729": " sun", "730": " tw", "731": " clo", "732": "ia", "733": " run", "734": " hand", "735": " Every", "736": " en", "737": " inside", "738": "dy", "739": " if", "740": " told", "741": " never", "742": "ion", "743": " qu", "744": " because", "745": "by", "746": " proud", "747": " gave", "748": " sorry", "749": " this", "750": " op", "751": " played", "752": "ate", "753": " expl", "754": " heard", "755": "ty", "756": " or", "757": " water", "758": "ank", "759": "ge", "760": "sed", "761": " pick", "762": "other", "763": " room", "764": "etter", "765": " just", "766": "ace", "767": " hugged", "768": "ak", "769": " gre", "770": "here", "771": " off", "772": " Sara", "773": " pret", "774": "ile", "775": " each", "776": " long", "777": " com", "778": " box", "779": "ort", "780": " str", "781": "iz", "782": " unt", "783": "oth", "784": " wat", "785": " need", "786": " jo", "787": " We", "788": " small", "789": "Tom", "790": "ine", "791": " bear", "792": "Mom", "793": " until", "794": " nice", "795": " try", "796": "ving", "797": "uc", "798": "sel", "799": "ough", "800": " learned", "801": " kind", "802": " Anna", "803": "ild", "804": " fo", "805": " many", "806": "'m", "807": " Jack", "808": " better", "809": " im", "810": "imal", "811": "gry", "812": "urt", "813": " animal", "814": "ft", "815": " end", "816": " sn", "817": "aut", "818": " te", "819": " cle", "820": " Jo", "821": "vent", "822": "urp", "823": " gr", "824": " beaut", "825": " jump", "826": "mb", "827": " ad", "828": "ream", "829": "pt", "830": " So", "831": " Her", "832": " flow", "833": "ies", "834": " che", "835": " bra", "836": " thanked", "837": " even", "838": " best", "839": " call", "840": "ady", "841": "He", "842": " lots", "843": " laughed", "844": "self", "845": " ra", "846": " way", "847": "urn", "848": "ars", "849": " fast", "850": " by", "851": "lly", "852": " fam", "853": " C", "854": "ves", "855": "arden", "856": " garden", "857": " beauti", "858": "wn", "859": "Th", "860": " beautiful", "861": " loud", "862": "lew", "863": " sky", "864": " don", "865": "hn", "866": "ered", "867": "iny", "868": " careful", "869": " love", "870": " fi", "871": " Then", "872": "“", "873": "”", "874": "ase", "875": "ect", "876": " safe", "877": " And", "878": " under", "879": " come", "880": " From", "881": "Yes", "882": " Mia", "883": "me", "884": "It", "885": " hard", "886": " cu", "887": " wo", "888": " list", "889": " stay", "890": "ane", "891": "sh", "892": "ople", "893": " gl", "894": "ning", "895": " still", "896": "ool", "897": " hurt", "898": "ree", "899": " His", "900": " imp", "901": " family", "902": " both", "903": "rm", "904": "igh", "905": " lived", "906": "hes", "907": "When", "908": " people", "909": " animals", "910": " col", "911": " brave", "912": " walked", "913": "ob", "914": "Tim", "915": "ct", "916": " let", "917": "urpr", "918": " When", "919": " two", "920": " surpr", "921": " should", "922": "ished", "923": "ress", "924": " bad", "925": " kept", "926": " fore", "927": " “", "928": " flew", "929": " fin", "930": " stor", "931": " fly", "932": "ast", "933": "ised", "934": "ip", "935": " its", "936": "led", "937": "ock", "938": "ucy", "939": "fore", "940": " going", "941": " clean", "942": " dan", "943": " soon", "944": " pic", "945": " called", "946": " share", "947": "kay", "948": " angry", "949": " rock", "950": " pretty", "951": " con", "952": "No", "953": " ide", "954": "ied", "955": "illy", "956": " ground", "957": "xt", "958": " red", "959": " explore", "960": " cry", "961": " advent", "962": " sto", "963": "so", "964": " real", "965": "Let", "966": " wind", "967": " shiny", "968": "be", "969": " book", "970": " also", "971": " doll", "972": " idea", "973": " before", "974": " opened", "975": "dded", "976": " while", "977": "ummy", "978": " keep", "979": " ey", "980": " now", "981": " feeling", "982": " door", "983": "oon", "984": "oy", "985": " walking", "986": " noise", "987": "les", "988": " fr", "989": "age", "990": "ious", "991": " color", "992": " turn", "993": "thing", "994": "ff", "995": "uch", "996": "th", "997": " bed", "998": "ary", "999": " dra", "1000": " picked", "1001": "imb", "1002": "eet", "1003": " climb", "1004": " del", "1005": "What", "1006": " being", "1007": " food", "1008": " un", "1009": " far", "1010": "ture", "1011": "joy", "1012": " adventure", "1013": "ac", "1014": " smile", "1015": " dif", "1016": "’", "1017": "memb", "1018": " wr", "1019": "ught", "1020": " thr", "1021": " looking", "1022": "iced", "1023": " next", "1024": " Lucy", "1025": " nodded", "1026": " quick", "1027": " P", "1028": " dis", "1029": " repl", "1030": " Dad", "1031": " wait", "1032": "ized", "1033": " forest", "1034": " clos", "1035": " Suddenly", "1036": " tra", "1037": "That", "1038": " eyes", "1039": "ger", "1040": "bbit", "1041": "ted", "1042": " own", "1043": " rain", "1044": " import", "1045": " great", "1046": " rememb", "1047": " picture", "1048": "Thank", "1049": "Suddenly", "1050": " stopped", "1051": " enjoy", "1052": " vo", "1053": "Ben", "1054": " give", "1055": " important", "1056": " work", "1057": " near", "1058": "gan", "1059": "pot", "1060": " ever", "1061": " app", "1062": " after", "1063": " quickly", "1064": " listen", "1065": " bre", "1066": "ting", "1067": "inging", "1068": "bbed", "1069": " ma", "1070": " replied", "1071": " fish", "1072": " rabbit", "1073": " hands", "1074": " G", "1075": " noticed", "1076": " bro", "1077": " slide", "1078": " walk", "1079": " think", "1080": " truck", "1081": " ac", "1082": "kes", "1083": " strong", "1084": "She", "1085": " showed", "1086": " de", "1087": " everyone", "1088": " wonder", "1089": "fere", "1090": "bye", "1091": " differe", "1092": "irst", "1093": "So", "1094": " sure", "1095": " has", "1096": " right", "1097": " became", "1098": " been", "1099": "maz", "1100": " sound", "1101": " tow", "1102": " ru", "1103": " tal", "1104": " amaz", "1105": " head", "1106": " shout", "1107": " bright", "1108": " ye", "1109": " watched", "1110": " R", "1111": " mor", "1112": " child", "1113": "able", "1114": " mean", "1115": " where", "1116": "llow", "1117": " high", "1118": " face", "1119": " Sue", "1120": " cook", "1121": "day", "1122": "aybe", "1123": " watch", "1124": " blue", "1125": "aught", "1126": " different", "1127": " store", "1128": " N", "1129": " goodbye", "1130": " dress", "1131": "ull", "1132": " Bob", "1133": "ng", "1134": "ange", "1135": " squ", "1136": " okay", "1137": "isy", "1138": " Mommy", "1139": "lease", "1140": " voice", "1141": "Jo", "1142": "ath", "1143": " Spot", "1144": " night", "1145": " us", "1146": " boat", "1147": " flowers", "1148": " place", "1149": " follow", "1150": " ar", "1151": " use", "1152": " closer", "1153": "unny", "1154": "leep", "1155": "ired", "1156": " fav", "1157": " yell", "1158": " grabbed", "1159": " curi", "1160": " warm", "1161": " forg", "1162": " cr", "1163": " Sarah", "1164": " John", "1165": " mag", "1166": " stick", "1167": "We", "1168": " jumped", "1169": " cake", "1170": "more", "1171": " tell", "1172": " anymore", "1173": "After", "1174": " butter", "1175": "ndma", "1176": " three", "1177": " ask", "1178": "co", "1179": " our", "1180": "lie", "1181": " curious", "1182": "ount", "1183": "orn", "1184": " cont", "1185": " fell", "1186": "ached", "1187": " birds", "1188": " Th", "1189": "ass", "1190": "Her", "1191": "iss", "1192": " helped", "1193": " pull", "1194": " Jane", "1195": "itc", "1196": " first", "1197": " block", "1198": " hop", "1199": " bit", "1200": " dr", "1201": " realized", "1202": " kid", "1203": "Look", "1204": "ila", "1205": " mon", "1206": " brother", "1207": "Anna", "1208": "Sara", "1209": " z", "1210": " Everyone", "1211": " ate", "1212": " does", "1213": "imes", "1214": " happened", "1215": " stop", "1216": "zy", "1217": " yummy", "1218": " favor", "1219": "ppy", "1220": "itchen", "1221": " kitchen", "1222": " sweet", "1223": "us", "1224": " really", "1225": " per", "1226": "aisy", "1227": " grass", "1228": " favorite", "1229": " began", "1230": " rest", "1231": " ready", "1232": " lea", "1233": " underst", "1234": " reached", "1235": "air", "1236": " ste", "1237": " story", "1238": " bunny", "1239": " As", "1240": "'re", "1241": " pain", "1242": "ster", "1243": " sand", "1244": " only", "1245": " here", "1246": " flo", "1247": " am", "1248": " glad", "1249": " tri", "1250": "eded", "1251": " beh", "1252": " world", "1253": " open", "1254": " cre", "1255": "fully", "1256": " prin", "1257": "where", "1258": "arent", "1259": " flower", "1260": " through", "1261": " fire", "1262": " ba", "1263": " done", "1264": " having", "1265": " thing", "1266": " delic", "1267": " himself", "1268": " tired", "1269": " parent", "1270": " soft", "1271": "Timmy", "1272": " fro", "1273": " tast", "1274": " butterf", "1275": " Let", "1276": " why", "1277": " part", "1278": " cut", "1279": "ken", "1280": " mess", "1281": "Can", "1282": " worry", "1283": "Mommy", "1284": "iver", "1285": " din", "1286": "uff", "1287": "ater", "1288": " magic", "1289": " waved", "1290": " shouted", "1291": " pond", "1292": " kids", "1293": " hat", "1294": " sees", "1295": " duck", "1296": "olly", "1297": "illed", "1298": " game", "1299": "ient", "1300": " making", "1301": "ather", "1302": "John", "1303": "As", "1304": "akes", "1305": " catch", "1306": "eded", "1307": "eded", "1308": "eded", "1309": "eded", "1310": "eded", "1311": "eded", "1312": "eded", "1313": "eded", "1314": "eded", "1315": "eded", "1316": "eded", "1317": "eded", "1318": "eded", "1319": "eded", "1320": "eded", "1321": "eded", "1322": "eded", "1323": "eded", "1324": "eded", "1325": "eded", "1326": "eded", "1327": "eded", "1328": "eded", "1329": "eded", "1330": "eded", "1331": "eded", "1332": "eded", "1333": "eded", "1334": "eded", "1335": "eded", "1336": "eded", "1337": "eded", "1338": "eded", "1339": "eded", "1340": "eded", "1341": "eded", "1342": "eded", "1343": "eded", "1344": "eded", "1345": "eded", "1346": "eded", "1347": "eded", "1348": "eded", "1349": "eded", "1350": "eded", "1351": "eded", "1352": "eded", "1353": "eded", "1354": "eded", "1355": "eded", "1356": "eded", "1357": "eded", "1358": "eded", "1359": "eded", "1360": "eded", "1361": "eded", "1362": "eded", "1363": "eded", "1364": "eded", "1365": "eded", "1366": "eded", "1367": "eded", "1368": "eded", "1369": "eded", "1370": "eded", "1371": "eded", "1372": "eded", "1373": "eded", "1374": "eded", "1375": "eded", "1376": "eded", "1377": "eded", "1378": "eded", "1379": "eded", "1380": "eded", "1381": "eded", "1382": "eded", "1383": "eded", "1384": "eded", "1385": "eded", "1386": "eded", "1387": "eded", "1388": "eded", "1389": "eded", "1390": "eded", "1391": "eded", "1392": "eded", "1393": "eded", "1394": "eded", "1395": "eded", "1396": "eded", "1397": "eded", "1398": "eded", "1399": "eded", "1400": "eded", "1401": "eded", "1402": "eded", "1403": "eded", "1404": "eded", "1405": "eded", "1406": "eded", "1407": "eded", "1408": "eded", "1409": "eded", "1410": "eded", "1411": "eded", "1412": "eded", "1413": "eded", "1414": "eded", "1415": "eded", "1416": "eded", "1417": "eded", "1418": "eded", "1419": "eded", "1420": "eded", "1421": "eded", "1422": "eded", "1423": "eded", "1424": "eded", "1425": "eded", "1426": "eded", "1427": "eded", "1428": "eded", "1429": "eded", "1430": "eded", "1431": "eded", "1432": "eded", "1433": "eded", "1434": "eded", "1435": "eded", "1436": "eded", "1437": "eded", "1438": "eded", "1439": "eded", "1440": "eded", "1441": "eded", "1442": "eded", "1443": "eded", "1444": "eded", "1445": "eded", "1446": "eded", "1447": "eded", "1448": "eded", "1449": "eded", "1450": "eded", "1451": "eded", "1452": "eded", "1453": "eded", "1454": "eded", "1455": "eded", "1456": "eded", "1457": "eded", "1458": "eded", "1459": "eded", "1460": "eded", "1461": "eded", "1462": "eded", "1463": "eded", "1464": "eded", "1465": "eded", "1466": "eded", "1467": "eded", "1468": "eded", "1469": "eded", "1470": "eded", "1471": "eded", "1472": "eded", "1473": "eded", "1474": "eded", "1475": "eded", "1476": "eded", "1477": "eded", "1478": "eded", "1479": "eded", "1480": "eded", "1481": "eded", "1482": "eded", "1483": "eded", "1484": "eded", "1485": "eded", "1486": "eded", "1487": "eded", "1488": "eded", "1489": "eded", "1490": "eded", "1491": "eded", "1492": "eded", "1493": "eded", "1494": "eded", "1495": "eded", "1496": "eded", "1497": "eded", "1498": "eded", "1499": "eded", "1500": "eded", "1501": "eded", "1502": "eded", "1503": "eded", "1504": "eded", "1505": "eded", "1506": "eded", "1507": "eded", "1508": "eded", "1509": "eded", "1510": "eded", "1511": "eded", "1512": "eded", "1513": "eded", "1514": "eded", "1515": "eded", "1516": "eded", "1517": "eded", "1518": "eded", "1519": "eded", "1520": "eded", "1521": "eded", "1522": "eded", "1523": "eded", "1524": "eded", "1525": "eded", "1526": "eded", "1527": "eded", "1528": "eded", "1529": "eded", "1530": "eded", "1531": "eded", "1532": "eded", "1533": "eded", "1534": "eded", "1535": "eded", "1536": "eded", "1537": "eded", "1538": "eded", "1539": "eded", "1540": "eded", "1541": "eded", "1542": "eded", "1543": "eded", "1544": "eded", "1545": "eded", "1546": "eded", "1547": "eded", "1548": "eded", "1549": "eded", "1550": "eded", "1551": "eded", "1552": "eded", "1553": "eded", "1554": "eded", "1555": "eded", "1556": "eded", "1557": "eded", "1558": "eded", "1559": "eded", "1560": "eded", "1561": "eded", "1562": "eded", "1563": "eded", "1564": "eded", "1565": "eded", "1566": "eded", "1567": "eded", "1568": "eded", "1569": "eded", "1570": "eded", "1571": "eded", "1572": "eded", "1573": "eded", "1574": "eded", "1575": "eded", "1576": "eded", "1577": "eded", "1578": "eded", "1579": "eded", "1580": "eded", "1581": "eded", "1582": "eded", "1583": "eded", "1584": "eded", "1585": "eded", "1586": "eded", "1587": "eded", "1588": "eded", "1589": "eded", "1590": "eded", "1591": "eded", "1592": "eded", "1593": "eded", "1594": "eded", "1595": "eded", "1596": "eded", "1597": "eded", "1598": "eded", "1599": "eded", "1600": "eded", "1601": "eded", "1602": "eded", "1603": "eded", "1604": "eded", "1605": "eded", "1606": "eded", "1607": "eded", "1608": "eded", "1609": "eded", "1610": "eded", "1611": "eded", "1612": "eded", "1613": "eded", "1614": "eded", "1615": "eded", "1616": "eded", "1617": "eded", "1618": "eded", "1619": "eded", "1620": "eded", "1621": "eded", "1622": "eded", "1623": "eded", "1624": "eded", "1625": "eded", "1626": "eded", "1627": "eded", "1628": "eded", "1629": "eded", "1630": "eded", "1631": "eded", "1632": "eded", "1633": "eded", "1634": "eded", "1635": "eded", "1636": "eded", "1637": "eded", "1638": "eded", "1639": "eded", "1640": "eded", "1641": "eded", "1642": "eded", "1643": "eded", "1644": "eded", "1645": "eded", "1646": "eded", "1647": "eded", "1648": "eded", "1649": "eded", "1650": "eded", "1651": "eded", "1652": "eded", "1653": "eded", "1654": "eded", "1655": "eded", "1656": "eded", "1657": "eded", "1658": "eded", "1659": "eded", "1660": "eded", "1661": "eded", "1662": "eded", "1663": "eded", "1664": "eded", "1665": "eded", "1666": "eded", "1667": "eded", "1668": "eded", "1669": "eded", "1670": "eded", "1671": "eded", "1672": "eded", "1673": "eded", "1674": "eded", "1675": "eded", "1676": "eded", "1677": "eded", "1678": "eded", "1679": "eded", "1680": "eded", "1681": "eded", "1682": "eded", "1683": "eded", "1684": "eded", "1685": "eded", "1686": "eded", "1687": "eded", "1688": "eded", "1689": "eded", "1690": "eded", "1691": "eded", "1692": "eded", "1693": "eded", "1694": "eded", "1695": "eded", "1696": "eded", "1697": "eded", "1698": "eded", "1699": "eded", "1700": "eded", "1701": "eded", "1702": "eded", "1703": "eded", "1704": "eded", "1705": "eded", "1706": "eded", "1707": "eded", "1708": "eded", "1709": "eded", "1710": "eded", "1711": "eded", "1712": "eded", "1713": "eded", "1714": "eded", "1715": "eded", "1716": "eded", "1717": "eded", "1718": "eded", "1719": "eded", "1720": "eded", "1721": "eded", "1722": "eded", "1723": "eded", "1724": "eded", "1725": "eded", "1726": "eded", "1727": "eded", "1728": "eded", "1729": "eded", "1730": "eded", "1731": "eded", "1732": "eded", "1733": "eded", "1734": "eded", "1735": "eded", "1736": "eded", "1737": "eded", "1738": "eded", "1739": "eded", "1740": "eded", "1741": "eded", "1742": "eded", "1743": "eded", "1744": "eded", "1745": "eded", "1746": "eded", "1747": "eded", "1748": "eded", "1749": "eded", "1750": "eded", "1751": "eded", "1752": "eded", "1753": "eded", "1754": "eded", "1755": "eded", "1756": "eded", "1757": "eded", "1758": "eded", "1759": "eded", "1760": "eded", "1761": "eded", "1762": "eded", "1763": "eded", "1764": "eded", "1765": "eded", "1766": "eded", "1767": "eded", "1768": "eded", "1769": "eded", "1770": "eded", "1771": "eded", "1772": "eded", "1773": "eded", "1774": "eded", "1775": "eded", "1776": "eded", "1777": "eded", "1778": "eded", "1779": "eded", "1780": "eded", "1781": "eded", "1782": "eded", "1783": "eded", "1784": "eded", "1785": "eded", "1786": "eded", "1787": "eded", "1788": "eded", "1789": "eded", "1790": "eded", "1791": "eded", "1792": "eded", "1793": "eded", "1794": "eded", "1795": "eded", "1796": "eded", "1797": "eded", "1798": "eded", "1799": "eded", "1800": "eded", "1801": "eded", "1802": "eded", "1803": "eded", "1804": "eded", "1805": "eded", "1806": "eded", "1807": "eded", "1808": "eded", "1809": "eded", "1810": "eded", "1811": "eded", "1812": "eded", "1813": "eded", "1814": "eded", "1815": "eded", "1816": "eded", "1817": "eded", "1818": "eded", "1819": "eded", "1820": "eded", "1821": "eded", "1822": "eded", "1823": "eded", "1824": "eded", "1825": "eded", "1826": "eded", "1827": "eded", "1828": "eded", "1829": "eded", "1830": "eded", "1831": "eded", "1832": "eded", "1833": "eded", "1834": "eded", "1835": "eded", "1836": "eded", "1837": "eded", "1838": "eded", "1839": "eded", "1840": "eded", "1841": "eded", "1842": "eded", "1843": "eded", "1844": "eded", "1845": "eded", "1846": "eded", "1847": "eded", "1848": "eded", "1849": "eded", "1850": "eded", "1851": "eded", "1852": "eded", "1853": "eded", "1854": "eded", "1855": "eded", "1856": "eded", "1857": "eded", "1858": "eded", "1859": "eded", "1860": "eded", "1861": "eded", "1862": "eded", "1863": "eded", "1864": "eded", "1865": "eded", "1866": "eded", "1867": "eded", "1868": "eded", "1869": "eded", "1870": "eded", "1871": "eded", "1872": "eded", "1873": "eded", "1874": "eded", "1875": "eded", "1876": "eded", "1877": "eded", "1878": "eded", "1879": "eded", "1880": "eded", "1881": "eded", "1882": "eded", "1883": "eded", "1884": "eded", "1885": "eded", "1886": "eded", "1887": "eded", "1888": "eded", "1889": "eded", "1890": "eded", "1891": "eded", "1892": "eded", "1893": "eded", "1894": "eded", "1895": "eded", "1896": "eded", "1897": "eded", "1898": "eded", "1899": "eded", "1900": "eded", "1901": "eded", "1902": "eded", "1903": "eded", "1904": "eded", "1905": "eded", "1906": "eded", "1907": "eded", "1908": "eded", "1909": "eded", "1910": "eded", "1911": "eded", "1912": "eded", "1913": "eded", "1914": "eded", "1915": "eded", "1916": "eded", "1917": "eded", "1918": "eded", "1919": "eded", "1920": "eded", "1921": "eded", "1922": "eded", "1923": "eded", "1924": "eded", "1925": "eded", "1926": "eded", "1927": "eded", "1928": "eded", "1929": "eded", "1930": "eded", "1931": "eded", "1932": "eded", "1933": "eded", "1934": "eded", "1935": "eded", "1936": "eded", "1937": "eded", "1938": "eded", "1939": "eded", "1940": "eded", "1941": "eded", "1942": "eded", "1943": "eded", "1944": "eded", "1945": "eded", "1946": "eded", "1947": "eded", "1948": "eded", "1949": "eded", "1950": "eded", "1951": "eded", "1952": "eded", "1953": "eded", "1954": "eded", "1955": "eded", "1956": "eded", "1957": "eded", "1958": "eded", "1959": "eded", "1960": "eded", "1961": "eded", "1962": "eded", "1963": "eded", "1964": "eded", "1965": "eded", "1966": "eded", "1967": "eded", "1968": "eded", "1969": "eded", "1970": "eded", "1971": "eded", "1972": "eded", "1973": "eded", "1974": "eded", "1975": "eded", "1976": "eded", "1977": "eded", "1978": "eded", "1979": "eded", "1980": "eded", "1981": "eded", "1982": "eded", "1983": "eded", "1984": "eded", "1985": "eded", "1986": "eded", "1987": "eded", "1988": "eded", "1989": "eded", "1990": "eded", "1991": "eded", "1992": "eded", "1993": "eded", "1994": "eded", "1995": "eded", "1996": "eded", "1997": "eded", "1998": "eded", "1999": "eded"}