{"0": "\u0000", "1": "\u0001", "2": "\u0002", "3": "\u0003", "4": "\u0004", "5": "\u0005", "6": "\u0006", "7": "\u0007", "8": "\b", "9": "\t", "10": "\n", "11": "\u000b", "12": "\f", "13": "\r", "14": "\u000e", "15": "\u000f", "16": "\u0010", "17": "\u0011", "18": "\u0012", "19": "\u0013", "20": "\u0014", "21": "\u0015", "22": "\u0016", "23": "\u0017", "24": "\u0018", "25": "\u0019", "26": "\u001a", "27": "\u001b", "28": "\u001c", "29": "\u001d", "30": "\u001e", "31": "\u001f", "32": " ", "33": "!", "34": "\"", "35": "#", "36": "$", "37": "%", "38": "&", "39": "'", "40": "(", "41": ")", "42": "*", "43": "+", "44": ",", "45": "-", "46": ".", "47": "/", "48": "0", "49": "1", "50": "2", "51": "3", "52": "4", "53": "5", "54": "6", "55": "7", "56": "8", "57": "9", "58": ":", "59": ";", "60": "<", "61": "=", "62": ">", "63": "?", "64": "@", "65": "A", "66": "B", "67": "C", "68": "D", "69": "E", "70": "F", "71": "G", "72": "H", "73": "I", "74": "J", "75": "K", "76": "L", "77": "M", "78": "N", "79": "O", "80": "P", "81": "Q", "82": "R", "83": "S", "84": "T", "85": "U", "86": "V", "87": "W", "88": "X", "89": "Y", "90": "Z", "91": "[", "92": "\\", "93": "]", "94": "^", "95": "_", "96": "`", "97": "a", "98": "b", "99": "c", "100": "d", "101": "e", "102": "f", "103": "g", "104": "h", "105": "i", "106": "j", "107": "k", "108": "l", "109": "m", "110": "n", "111": "o", "112": "p", "113": "q", "114": "r", "115": "s", "116": "t", "117": "u", "118": "v", "119": "w", "120": "x", "121": "y", "122": "z", "123": "{", "124": "|", "125": "}", "126": "~", "127": "", "128": "�", "129": "�", "130": "�", "131": "�", "132": "�", "133": "�", "134": "�", "135": "�", "136": "�", "137": "�", "138": "�", "139": "�", "140": "�", "141": "�", "142": "�", "143": "�", "144": "�", "145": "�", "146": "�", "147": "�", "148": "�", "149": "�", "150": "�", "151": "�", "152": "�", "153": "�", "154": "�", "155": "�", "156": "�", "157": "�", "158": "�", "159": "�", "160": "�", "161": "�", "162": "�", "163": "�", "164": "�", "165": "�", "166": "�", "167": "�", "168": "�", "169": "�", "170": "�", "171": "�", "172": "�", "173": "�", "174": "�", "175": "�", "176": "�", "177": "�", "178": "�", "179": "�", "180": "�", "181": "�", "182": "�", "183": "�", "184": "�", "185": "�", "186": "�", "187": "�", "188": "�", "189": "�", "190": "�", "191": "�", "192": "�", "193": "�", "194": "�", "195": "�", "196": "�", "197": "�", "198": "�", "199": "�", "200": "�", "201": "�", "202": "�", "203": "�", "204": "�", "205": "�", "206": "�", "207": "�", "208": "�", "209": "�", "210": "�", "211": "�", "212": "�", "213": "�", "214": "�", "215": "�", "216": "�", "217": "�", "218": "�", "219": "�", "220": "�", "221": "�", "222": "�", "223": "�", "224": "�", "225": "�", "226": "�", "227": "�", "228": "�", "229": "�", "230": "�", "231": "�", "232": "�", "233": "�", "234": "�", "235": "�", "236": "�", "237": "�", "238": "�", "239": "�", "240": "�", "241": "�", "242": "�", "243": "�", "244": "�", "245": "�", "246": "�", "247": "�", "248": "�", "249": "�", "250": "�", "251": "�", "252": "�", "253": "�", "254": "�", "255": "�", "256": "<|endoftext|>", "257": "he", "258": " t", "259": " a", "260": " s", "261": " w", "262": "nd", "263": " the", "264": "ed", "265": " and", "266": " to", "267": " b", "268": "in", "269": " h", "270": " wa", "271": "re", "272": " f", "273": "it", "274": "ou", "275": " c", "276": " l", "277": " he", "278": " d", "279": "er", "280": " was", "281": " m", "282": " p", "283": "om", "284": " T", "285": " o", "286": "ay", "287": "ar", "288": "ing", "289": "is", "290": " g", "291": "il", "292": "id", "293": "at", "294": "en", "295": " n", "296": " sa", "297": " ha", "298": " S", "299": "im", "300": "an", "301": " The", "302": "or", "303": "on", "304": " it", "305": " th", "306": "ll", "307": "le", "308": " H", "309": " her", "310": "et", "311": "ot", "312": "ir", "313": " She", "314": " He", "315": "ver", "316": "es", "317": " in", "318": "ut", "319": "ow", "320": "ck", "321": " e", "322": " u", "323": "ld", "324": " They", "325": "oo", "326": "ig", "327": " said", "328": "am", "329": "ily", "330": " be", "331": " y", "332": " r", "333": " st", "334": "ce", "335": " she", "336": " \"", "337": "pp", "338": "ke", "339": "ith", "340": "On", "341": " I", "342": " with", "343": "ve", "344": "Lily", "345": " on", "346": " of", "347": " so", "348": " his", "349": "ked", "350": "ri", "351": "nt", "352": "very", "353": " pl", "354": " day", "355": "ad", "356": " you", "357": " that", "358": " up", "359": " had", "360": "st", "361": " play", "362": " they", "363": " Lily", "364": " we", "365": " mom", "366": "my", "367": " for", "368": "el", "369": "ould", "370": "un", "371": " B", "372": "'s", "373": "itt", "374": "ent", "375": " happ", "376": "The", "377": "ch", "378": " li", "379": "out", "380": " want", "381": " sh", "382": "her", "383": "ly", "384": "ime", "385": "ittle", "386": "ound", "387": " very", "388": " time", "389": "ome", "390": " little", "391": " there", "392": "se", "393": " do", "394": " wh", "395": "all", "396": " k", "397": "end", "398": "al", "399": "ht", "400": " ne", "401": " re", "402": " not", "403": " happy", "404": " big", "405": " M", "406": " but", "407": " sm", "408": "ack", "409": " saw", "410": " It", "411": " as", "412": " an", "413": "ra", "414": "riend", "415": " friend", "416": "ide", "417": "One", "418": "ry", "419": "'t", "420": "ved", "421": " is", "422": "Once", "423": "ake", "424": ".\"", "425": " were", "426": "ter", "427": "ug", "428": " loo", "429": " lo", "430": "ore", "431": "ec", "432": " Tim", "433": " him", "434": " bo", "435": "!\"", "436": " too", "437": " upon", "438": " go", "439": "irl", "440": " j", "441": " wanted", "442": " girl", "443": " se", "444": " out", "445": "ard", "446": "way", "447": " sp", "448": "ill", "449": "ind", "450": " them", "451": " could", "452": "fu", "453": "hen", "454": " at", "455": "ur", "456": " did", "457": " smil", "458": " their", "459": " are", "460": " ex", "461": " A", "462": "ain", "463": " went", "464": "art", "465": "hed", "466": "rom", "467": "ic", "468": "round", "469": " have", "470": " nam", "471": "lp", "472": " all", "473": " J", "474": "ful", "475": " kn", "476": "hing", "477": "ood", "478": " help", "479": "ight", "480": " friends", "481": "one", "482": "ark", "483": " back", "484": "um", "485": " can", "486": " named", "487": " cl", "488": "?\"", "489": " fun", "490": "are", "491": " Ben", "492": " loved", "493": "elt", "494": " al", "495": " Timmy", "496": " One", "497": "op", "498": "side", "499": " le", "500": " no", "501": " sc", "502": " Tom", "503": " felt", "504": "oug", "505": " smiled", "506": "ick", "507": " asked", "508": "You", "509": " toy", "510": " man", "511": " around", "512": "ame", "513": " fe", "514": " say", "515": " boy", "516": " some", "517": " looked", "518": "ure", "519": "omet", "520": " br", "521": " would", "522": " me", "523": " bir", "524": " like", "525": "get", "526": " start", "527": " ro", "528": "as", "529": " see", "530": " W", "531": "ice", "532": "ong", "533": " bird", "534": " somet", "535": "dd", "536": " wor", "537": "ade", "538": "ie", "539": "king", "540": " ag", "541": "own", "542": " tre", "543": " fa", "544": " away", "545": " what", "546": "ings", "547": " started", "548": "gether", "549": " ran", "550": "�", "551": "ared", "552": " make", "553": " But", "554": "ited", "555": "if", "556": "oud", "557": " made", "558": " together", "559": " something", "560": " exc", "561": "ag", "562": " co", "563": " park", "564": " new", "565": " sad", "566": " put", "567": ",\"", "568": " from", "569": "ble", "570": "ther", "571": " pr", "572": " mu", "573": " car", "574": " home", "575": " You", "576": " then", "577": " when", "578": " found", "579": "ell", "580": " other", "581": " again", "582": " ch", "583": " dec", "584": " who", "585": " la", "586": "ried", "587": "ss", "588": " good", "589": " hug", "590": " L", "591": "pped", "592": " wal", "593": "ep", "594": "ally", "595": " says", "596": " fl", "597": "est", "598": "ach", "599": " E", "600": " excited", "601": "pl", "602": "qu", "603": "ook", "604": " get", "605": "ought", "606": " playing", "607": " got", "608": " sw", "609": "ous", "610": "hat", "611": "ny", "612": "ided", "613": "uck", "614": " things", "615": " every", "616": " decided", "617": " came", "618": " bec", "619": "ave", "620": "ro", "621": "ax", "622": " liked", "623": " down", "624": " dog", "625": " scared", "626": " v", "627": "udd", "628": "ust", "629": " one", "630": " find", "631": " bl", "632": " than", "633": " D", "634": "ouse", "635": "ways", "636": " kne", "637": " didn", "638": "ap", "639": " mommy", "640": " care", "641": " always", "642": " ab", "643": "ist", "644": " dad", "645": " feel", "646": "ara", "647": "bb", "648": "arn", "649": "fe", "650": " your", "651": " outside", "652": "ue", "653": " gra", "654": "ant", "655": " ke", "656": " Mom", "657": " took", "658": " lot", "659": "nn", "660": " bu", "661": " about", "662": "ess", "663": " F", "664": "nder", "665": " tree", "666": "eci", "667": " look", "668": " po", "669": " my", "670": "our", "671": " toys", "672": "ite", "673": "ched", "674": " knew", "675": " thought", "676": "ened", "677": " learn", "678": " int", "679": " old", "680": " more", "681": "nna", "682": "ise", "683": "ged", "684": " ta", "685": "udden", "686": "ecial", "687": " special", "688": " Max", "689": "au", "690": " will", "691": "ers", "692": "They", "693": "ret", "694": " pe", "695": " ho", "696": " Sam", "697": " take", "698": " ball", "699": " know", "700": " laug", "701": "fter", "702": "uddenly", "703": " cat", "704": " how", "705": "ive", "706": " tr", "707": " much", "708": " any", "709": " pu", "710": "ma", "711": " sl", "712": " sor", "713": " mo", "714": "ven", "715": "ish", "716": " show", "717": " couldn", "718": "ause", "719": "ink", "720": "But", "721": " house", "722": " into", "723": "ump", "724": " over", "725": " tried", "726": "and", "727": " eat", "728": " sk", "729": " sun", "730": " tw", "731": " clo", "732": "ia", "733": " run", "734": " hand", "735": " Every", "736": " en", "737": " inside", "738": "dy", "739": " if", "740": " told", "741": " never", "742": "ion", "743": " qu", "744": " because", "745": "by", "746": " proud", "747": " gave", "748": " sorry", "749": " this", "750": " op", "751": " played", "752": "ate", "753": " expl", "754": " heard", "755": "ty", "756": " or", "757": " water", "758": "ank", "759": "ge", "760": "sed", "761": " pick", "762": "other", "763": " room", "764": "etter", "765": " just", "766": "ace", "767": " hugged", "768": "ak", "769": " gre", "770": "here", "771": " off", "772": " Sara", "773": " pret", "774": "ile", "775": " each", "776": " long", "777": " com", "778": " box", "779": "ort", "780": " str", "781": "iz", "782": " unt", "783": "oth", "784": " wat", "785": " need", "786": " jo", "787": " We", "788": " small", "789": "Tom", "790": "ine", "791": " bear", "792": "Mom", "793": " until", "794": " nice", "795": " try", "796": "ving", "797": "uc", "798": "sel", "799": "ough", "800": " learned", "801": " kind", "802": " Anna", "803": "ild", "804": " fo", "805": " many", "806": "'m", "807": " Jack", "808": " better", "809": " im", "810": "imal", "811": "gry", "812": "urt", "813": " animal", "814": "ft", "815": " end", "816": " sn", "817": "aut", "818": " te", "819": " cle", "820": " Jo", "821": "vent", "822": "urp", "823": " gr", "824": " beaut", "825": " jump", "826": "mb", "827": " ad", "828": "ream", "829": "pt", "830": " So", "831": " Her", "832": " flow", "833": "ies", "834": " che", "835": " bra", "836": " thanked", "837": " even", "838": " best", "839": " call", "840": "ady", "841": "He", "842": " lots", "843": " laughed", "844": "self", "845": " ra", "846": " way", "847": "urn", "848": "ars", "849": " fast", "850": " by", "851": "lly", "852": " fam", "853": " C", "854": "ves", "855": "arden", "856": " garden", "857": " beauti", "858": "wn", "859": "Th", "860": " beautiful", "861": " loud", "862": "lew", "863": " sky", "864": " don", "865": "hn", "866": "ered", "867": "iny", "868": " careful", "869": " love", "870": " fi", "871": " Then", "872": "“", "873": "”", "874": "ase", "875": "ect", "876": " safe", "877": " And", "878": " under", "879": " come", "880": " From", "881": "Yes", "882": " Mia", "883": "me", "884": "It", "885": " hard", "886": " cu", "887": " wo", "888": " list", "889": " stay", "890": "ane", "891": "sh", "892": "ople", "893": " gl", "894": "ning", "895": " still", "896": "ool", "897": " hurt", "898": "ree", "899": " His", "900": " imp", "901": " family", "902": " both", "903": "rm", "904": "igh", "905": " lived", "906": "hes", "907": "When", "908": " people", "909": " animals", "910": " col", "911": " brave", "912": " walked", "913": "ob", "914": "Tim", "915": "ct", "916": " let", "917": "urpr", "918": " When", "919": " two", "920": " surpr", "921": " should", "922": "ished", "923": "ress", "924": " bad", "925": " kept", "926": " fore", "927": " “", "928": " flew", "929": " fin", "930": " stor", "931": " fly", "932": "ast", "933": "ised", "934": "ip", "935": " its", "936": "led", "937": "ock", "938": "ucy", "939": "fore", "940": " going", "941": " clean", "942": " dan", "943": " soon", "944": " pic", "945": " called", "946": " share", "947": "kay", "948": " angry", "949": " rock", "950": " pretty", "951": " con", "952": "No", "953": " ide", "954": "ied", "955": "illy", "956": " ground", "957": "xt", "958": " red", "959": " explore", "960": " cry", "961": " advent", "962": " sto", "963": "so", "964": " real", "965": "Let", "966": " wind", "967": " shiny", "968": "be", "969": " book", "970": " also", "971": " doll", "972": " idea", "973": " before", "974": " opened", "975": "dded", "976": " while", "977": "ummy", "978": " keep", "979": " ey", "980": " now", "981": " feeling", "982": " door", "983": "oon", "984": "oy", "985": " walking", "986": " noise", "987": "les", "988": " fr", "989": "age", "990": "ious", "991": " color", "992": " turn", "993": "thing", "994": "ff", "995": "uch", "996": "th", "997": " bed", "998": "ary", "999": " dra"}